ff4e00f7ff67003e00b300c4ffb0ff62ff5fffca
000500c90007000900e400560097ff60ff36ff13
ff7dfed00016ff0d007b00eb00eaff31ff510062
006cffdc002a007dff8000d700c6ffba0037006d
007e010a005c009afffbffb600cd009cffe6004d
0008ff92fff3ffb200a2ffa2ffcb00d50013ff92
00920044ffd5ff6affb3012200a9fee300c3ffba
003400f3ff340042ff9affa0ff5f00efffc7ffa9
0114ff9fff330118004e0110ffcffeb3ff5b0146
ff02ff56ffff00c201a0fedf014b00b80015ffd2
ff7f002d0000feddfe2800fe010c0219008f002a
ffeeff8100620053ff65ff20ff7cffebff63ff35
fff0ff330113ff2dff2c00c5fed401ed012affc1
000a008a0002ff1b00c8fef600dcff96ff4100ea
004bffc1006effcf0057ff2fff7b002400a90080
001c003500b4ff34ff4f002aff140004ff04ff69
015e00b1fffbffbdff5700ca004500a9000fffb6
00350008ff70ff96003b003b005401330028ff23
ff3eff4f00b30000ff8a007affd6005e005b00aa
0055ffe1009e0021ffe70056ff8cff9e017fff89
006b00d300cdff6b00790038ffda00dd00d5006a
0054ff1600490016ff61ff61ff96ffdb0082002f
003500b1ff9900b700a300920013ff58fffc00f2
ffc5ff09ff3ffff5ff3600d2007a0007fffe0091
000a0126ff8e00cc00000107ff07ff02fee80171
ff77fea4013affa4012dff45fffd006bfffc0072
ff650055feb600620037ffe4ff63ffee01faffac
00c8ff4effdf00e9006100ea0057008b00590011
00960073ff930053009b00a100ca0025ff9700e6
015a009f0016ff41fffaff3e0022ff8eff0c0001
004c00df009cff29ff000091ff82003fff330059
00730105ff13027fffdb00b9ff20ffd5fff3ffb8
010100a9ffee001dfedeff9affac00acff6c001b
002fff60011f00070112ff96ffacff03ffe6003f
ffe100bdff6f00b2ffc3ff8b0010001dff1fff13
003200b6ffd3ff5effd7feb9016a00a4fefb0145
00900070ff67ffbd00d4fff7002bff6fffb40041
ffe9ffc4fef9015dfedf009effbe00f50049ffd5
ff66ffefffbfffc2ff3aff5bff5c00a6ffb80012
ff36ff85ff3cffccff2a008cffe8001cff55ff87
ff97ff6bff9100e7ff38000000a400a9ff3100de
ffdeff68ffb1006e008000d50094002c008500ed
ffbfffd0ffecff1cff4f00b7ff81ff80ff760118
0009ff98ff4dff9cff08ff66ff68000effbfffbc
00db003b008800a5ff92ff12ff14ff97ff7bffde
ff92ff370021ffa200d30011fff9fe86ff14ff82
ff83ff6ffef80159ff89fe98ffb5012c006400b0
ff05007ffffdffc500ee0061ff5300e0004a00bc
fff300a20054ff0dffd20059009bff4900daffea
ff7600630008ff24ffc2ff3700efff7b0073ff59
00a1ff0cff4eff570034004dff6500af0019ff73
0003ff45ff9f0055ffe7ff9cff8f0097fffeff40
ff500027ff6f0057ff78004efefdffb5ff7d0063
01210010ffec004fffb7ff1d0013ffeefeec0138
0028ff3d0030ffee008d00f8ff0dfff5005dff6e
ffe4fff7fff90047ff59ff14ffb200b700caff4d
ffd8ff02ffc000b90060ffebffd5fff2ff0f005c
00f2ffbfffc000a000250019fff6ff9bff33ff40
0088ff4a00b6ff950051ff7cff43003e00c0ff82
ff3501edfe66ff7e0043ffff0007008600faff00
0010fff8fffe00a300e50087001a009800f2002d
ffb5003cffb4003a00010119006cffeb0156fecb
ff5301aafe7600400170ff0b00b1ff9b0113fe77
0066ff1c0085ff40001aff06ff6f0062ffb7000a
ffcc00dc016bfe0dff8cff7d011700e8fefcfef4
004a003bffea002f0143fffe023aff5800a9fee2
0044001300a1003000850072ff1b0086fffeffb7
ffa5009100070011ff1effd7ff3a00cd0092001a
ffd6ff8e0032ffc6007cff16000bff3bff46ff6e
ff340005ff7d001f005f005c009400c8003fff10
007a00a9004400d3ff95ff5000ac0099ff2500b9
00a50002ff38004000d4002800ea00cafefe00cb
0073ffbb00b9ff6fff3dff9d0013ffed000e0022
00bc000dff19ff4200baff4600a80098ff7700bd
ff34003f00ba000f00420000009c0099ffb60053
0068008e009fffcc00f700b1ff960022ff5f006f
008cff37004dff8fff31002fffd600f2007a004c
0093ffc9ff60fefa0158ffafffaeffc2006eff7e
ff9e0018018e0033ffe8fff6ffef00ebffb7ffae
01450069000500b3015bff32ffe2ff5cfef9009f
00e2ffc0001ffee2ff4b00bd007cfff1ff3400e5
00ba00baff27fff2005bffd9ff06ff74fff0ff86
00b7ffbb00a4ffe60021ff870093ff35ffe20034
fe5e000dfef700d4ffe90034ffd2ff9a01120081
003401420069010601b3ffa9ff570016ffd20081
0054ff50007b0076001effd70056fefaffea00c9
0025ff98ffe0ffd4ff98005400a5003dff320092
ff3aff140049ff7cfedeff80002e0135ff900005
0148fff1000fffad0100013000b4ff7dfec1ff0d
004f005b003afeea0049feaa019800fbff8bfe65
00ceff6fff3e005300da00c4ffa4002b003effb9
00b3ffd700eeff2800faffd6ff3f00cbff9fff90
001300540038ff42ffb7ffbc0084ffec011fff8a
0006ff0700b0ff8c00c2ff71ffbeff0100bf008d
ff30ff4e00030070ff5bfff100800072ffb70082
00a4ff29ffdd0062010e008a006f00340121ff28
ffbe00c100a1ffbbff0e000bfff500abff4ffff4
ffbe005fff2bff7dff68ffbdff3b006c0040ffa3
ff63ff6fff69009cff39008100afffbaff16ff68
0127ffab00dbfe66004000a6ff3fff95fff9fefb
0000ff1aff97009600cdff32003d001700fe00ce
002200410009fec7fff9ff33ff6cffcaff8d0072
015500bb0176fed4fec1006dff5cff2b00cbfeb3
ff86ff9afebdffaf00b0feef0099007afff70073
00ceffbeff4dffcefff9ff10ff3bffc800ed0028
fe8a000dfefd010c006900ac0026ffb5ff950043
ff81000100fa00edffdd00b900f0ff540055ff14
0000ffe70094febdff30fed3ff82ffdaff010012
ff730139fe90ffee017e003aff71ffd500350077
00cb00c701b6feb500aa006501a1fed20165ffdf
00a9007b0053ffe9ff510051ff7c00e6ff2dff12
000d00050090000c0083ff6800a50091fff8fdfb
ff4000af0038ff5dff2bff79ff80ff86ff8eff54
00baff46fff2015100aefeb00013ff52003fffc7
0135ff87feb50052006800c60071fff1004bff22
007600faffa200ccffc8ff5000abff4400c40028
ff14ff84001a0008005e00e10040004afffdfff4
ff5cffa3ff67fff3ff5800b40006003c005b00d0
fff9feed018e0124fec501b9fe9dfe8100a7ff45
00e7002cff4c005dff24004700f1ff2c00f3ffb8

