0005
00a9
ff9e
00b2
ff7c
ff6e
0098
00b9
006d
0068
0097
fffc
ff32
0099
0089
ff93
ffda
ff4b
0093
002f
ff8c
ff0c
0063
ffe6
002d
0092
ff1d
ff5b
0066
0040
ff7b
ff72
ffef
0023
ff1f
006b
0087
00aa
001e
fffe
001c
ffc3
00ec
0050
ff37
0071
00e0
002d
00cb
0080
ff53
ff4d
0091
00c1
003f
ffc9
0051
0052
0020
ffb2
ff92
0099
002f
0082
ffb9
0050
ffed
ff55
fffb
010b
0052
ff18
ffb1
002e
0061
fff2
ffb2
0048
ff1c
ff75
ffc3
ff69
ffcf
ff59
ff34
00fa
001a
007d
003f
ff3d
ff39
00e5
00e0
0064
005e
ffa1
ffa6
ff3e
ffe9
009c
ff4f
ff37
00b9
fff5
0069
0015
00e3
ff18
ff63
0107
ff88
002d
ff73
0040
007b
ffa6
0034
ff97
ff2d
ff78

